-0.06230551030925181 -0.2669311575150067 -0.07464562438449814 0.16827506049093394 -0.28269642158210234 -0.24794372375764218 0.14874786108393787 0.1747224032810357 -0.27324026724153544 0.25320002307872663 0.07456084415887748 0.24178941109662597 0.05445839014967833 -0.25661472191554596 0.09097557025049527 0.267216027776569 -0.040244054284148324 0.07246795256573642 0.12448017637251263 0.010336431578918436 -0.23415594156988542 0.06488537632435039 -0.05351761654505452 -0.2904485956111222 -0.09586300261159586 -0.09772149074244095 0.16174855155085505 -0.277483821904454 
 -0.06230551030925181 -0.2669311575150067 -0.07564497451311773 0.16827506049093394 -0.28369616770200545 -0.2489434698775453 0.14774851095531827 0.17372265716113258 -0.27324026724153544 0.2522002769588235 0.07356109803897437 0.24078966497672286 0.05445839014967833 -0.2576144680354491 0.08997622012187567 0.267216027776569 -0.040244054284148324 0.07146820644583331 0.12448017637251263 0.010336431578918436 -0.23415594156988542 0.06388563020444728 -0.05451696667367411 -0.2914483417310253 -0.09586300261159586 -0.09772149074244095 0.16074920142223545 -0.27648423854599086 
 -0.06230551030925181 -0.2669311575150067 -0.07464529135169475 0.16727531381801392 -0.28369616770200545 -0.2489434698775453 0.14674876428239825 0.17372265716113258 -0.27324026724153544 0.2512005302859035 0.07456078120039736 0.24178934813814584 0.05445839014967833 -0.2576144680354491 0.08897647344895565 0.26821571093799196 -0.040244054284148324 0.07146820644583331 0.1244801128610156 0.010336431578918436 -0.23415594156988542 0.06388563020444728 -0.05451696667367411 -0.2924480884039453 -0.09586300261159586 -0.09772149074244095 0.16174888458365844 -0.2774839852189109 
 -0.06230551030925181 -0.2669311575150067 -0.07464529135169475 0.16727531381801392 -0.28369616770200545 -0.2489434698775453 0.14674876428239825 0.17372265716113258 -0.27324026724153544 0.2512005302859035 0.07456078120039736 0.24178934813814584 0.05445839014967833 -0.2576144680354491 0.08897647344895565 0.26821571093799196 -0.040244054284148324 0.07146820644583331 0.1244801128610156 0.010336431578918436 -0.23415594156988542 0.06388563020444728 -0.05451696667367411 -0.2924480884039453 -0.09586300261159586 -0.09772149074244095 0.16174888458365844 -0.2774839852189109 
 -0.06230551030925181 -0.2669311575150067 -0.07464529135169475 0.16727531381801392 -0.28369616770200545 -0.2489434698775453 0.14674876428239825 0.17372265716113258 -0.27324026724153544 0.2512005302859035 0.07456078120039736 0.24178934813814584 0.05445839014967833 -0.2576144680354491 0.08897647344895565 0.26821571093799196 -0.040244054284148324 0.07146820644583331 0.1244801128610156 0.010336431578918436 -0.23415594156988542 0.06388563020444728 -0.05451696667367411 -0.2924480884039453 -0.09586300261159586 -0.09772149074244095 0.16174888458365844 -0.2774839852189109 
 -0.06230551030925181 -0.2669311575150067 -0.07364568894312848 0.16727531381801392 -0.28369616770200545 -0.24994307232073812 0.14774836669096453 0.17372265716113258 -0.27324026724153544 0.2512005302859035 0.07556038360896362 0.24178934813814584 0.05445839014967833 -0.2586140704786419 0.08997607585752192 0.26821571093799196 -0.040244054284148324 0.07146820644583331 0.12547971526958188 0.010336431578918436 -0.23415594156988542 0.06388563020444728 -0.053517364265107836 -0.2924480884039453 -0.09586300261159586 -0.09772149074244095 0.16274848699222472 -0.2774839852189109 
 -0.06230551030925181 -0.2679303717389663 -0.07264608186316011 0.1682749208979823 -0.28369616770200545 -0.25094228654469775 0.1487479737709329 0.17472226424110096 -0.27324026724153544 0.2512005302859035 0.07655999068893199 0.24278895521811422 0.05445839014967833 -0.2596132847026015 0.09097568293749028 0.26921531801796034 -0.040244054284148324 0.07046899222187368 0.12647932234955025 0.011336038658886806 -0.23415594156988542 0.06388563020444728 -0.052517757185139465 -0.29144848132397694 -0.09586300261159586 -0.09772149074244095 0.1637480940721931 -0.2764843781389425 
 -0.06230551030925181 -0.2679303717389663 -0.07364564902620557 0.1682749208979823 -0.28369616770200545 -0.25094228654469775 0.1487479737709329 0.17472226424110096 -0.27324026724153544 0.2512005302859035 0.07655999068893199 0.24278895521811422 0.05445839014967833 -0.2596132847026015 0.08997611577444482 0.26921531801796034 -0.040244054284148324 0.07046899222187368 0.1254797551865048 0.011336038658886806 -0.23415594156988542 0.06388563020444728 -0.053517324348184916 -0.29144848132397694 -0.09586300261159586 -0.09772149074244095 0.16274852690914765 -0.2764843781389425 
 -0.06230551030925181 -0.2679303717389663 -0.07364564902620557 0.1682749208979823 -0.28369616770200545 -0.25094228654469775 0.1487479737709329 0.17472226424110096 -0.27324026724153544 0.2512005302859035 0.07655999068893199 0.24278895521811422 0.05445839014967833 -0.2596132847026015 0.08997611577444482 0.26921531801796034 -0.040244054284148324 0.07046899222187368 0.1254797551865048 0.011336038658886806 -0.23415594156988542 0.06388563020444728 -0.053517324348184916 -0.29144848132397694 -0.09586300261159586 -0.09772149074244095 0.16274852690914765 -0.2764843781389425 
 -0.06230551030925181 -0.2679303717389663 -0.07264594166733929 0.1682749208979823 -0.28369616770200545 -0.25094228654469775 0.14974759199286242 0.17472226424110096 -0.27324026724153544 0.2512005302859035 0.0775598250642562 0.24278895521811422 0.05445839014967833 -0.2596132847026015 0.08997611577444482 0.2702150752524831 -0.040244054284148324 0.07046899222187368 0.1264794625453711 0.011336038658886806 -0.23415594156988542 0.06388563020444728 -0.053517324348184916 -0.29144848132397694 -0.09586300261159586 -0.09772149074244095 0.16374825939215762 -0.2754846707800762 
 